07 ef f8 f6 fe fa 01 0d 11 05 0c 1e 02 f6 f9 fd fc f8 fa 00 01 1f fc f9 15 21 da db 09 0a da 23 f7 07 1f 05 ce f0 00 0d ec d8 df f6 18 03 f8 09
08 29 19 0f ff 04 1d 11 0a 10 16 f9 1e 0e e7 ef e5 03 0a 00 f5 dd 2a 03 fa e7 0c 07 07 e7 0b de 17 17 c8 e0 13 e9 ed e3 e9 e9 03 fb e3 f5 2b 0c
ec f9 00 09 f4 02 21 23 ec f7 0b 10 fd de d6 ec 03 14 14 0b ed d1 cd cd 06 05 05 f4 1e 22 0c 0c 1f 20 20 fd 1c fe f4 ee dd 02 0b 16 00 fe 17 2d
dd 04 0d 0d c9 ed 05 1c d7 eb f6 01 cd f7 13 1d 17 17 09 f4 fd e1 0a 20 fc 15 2f e8 ef d9 d5 fd 21 19 13 f0 08 fa 07 00 fe 1d 16 02 2a ff f9 f8
12 1c 1d 1a 23 11 fa 00 f4 fc 0a f5 1a 18 09 f3 f3 01 ec 14 e8 00 e8 2a 28 e8 e8 0f ea e6 28 16 f8 d1 db c1 fe 02 fd e9 24 37 0e 06 01 e1 ff fd
0f ed d9 f9 0f 04 d1 9d ff 08 00 00 ed fb 1e 0d 00 16 0f fe ff 1e 09 1e e1 01 e9 f3 fa 05 e5 e9 f5 fd 00 42 17 fe 08 1e 28 16 0b f6 2b 01 fc f7
21 11 10 1c 11 f9 d0 c8 12 f9 ec 13 00 fc 09 fb 11 03 26 ff ff f2 e1 c6 0f 1c 12 f6 da 31 f8 24 d0 c3 e1 3d cd d1 fc 0b e2 09 0d 0d 01 24 02 00
eb fc 09 09 18 0a 13 08 ee fb 1f 0e 20 06 0a fa e7 b7 c8 e9 f8 f4 e5 06 0d 02 e8 fd 00 fd 23 2e 39 2e 24 f3 1c 08 02 07 1d d3 00 16 d1 ed f7 ff
f2 da e8 f9 f0 ff 01 16 05 07 df e5 f8 f3 01 05 fc 28 1d ed 1a 08 fb 00 f4 ea 21 00 09 4d f0 fb e7 fe 10 05 1c 06 f3 03 f4 04 f3 00 f2 06 00 e6
f2 e7 de cb fa d1 09 0e 09 fd 19 1c 0b 24 05 01 e4 f2 f9 00 1b 3a 13 ff fc da 16 2f e0 df e4 fe dc 00 03 f6 d6 2f 09 d1 35 15 0c e9 1c f8 e8 db
